00000285009400000000029C00000204 0000024500CE0000000002A9000001EA 0000023B00D30000000002B0000001D7 0000026300B50000000002B2000001D5 0000028400AD0000000002BA000001E2 0000029300B50000000002AD000001EB 000002A800580000000002AD000001DF 00000307002B00000000027A000001F0 00000320001E00000000025A00000234 000002C6004500000000025200000242 000002540079000000000290000001F1 0000025A0097000000000279000001CC 00000265009300000000028B000001D1 00000272009200000000027B000001E3 00000286006D000000000262000001F0 00000270007D00000000029E000001C9 0000028500A800000000028D000001C7 0000029500B50000000002B1000001D6 000002A500D30000000002C5000001E2 000002CF00B50000000002AB00000200 000002D300A50000000002BE000001FF 000002D200890000000002890000022A 000002CC002A00000000021A00000274 000F0274001E0000000002620000021D 000002530061000000000293000001BB 0000024200FA00000000030900000177 0000028B01190000000002C0000001A5 000002BE00B50000000002B5000001DE 000002D300910000000002AE0000020E 000002D9007B00000000028C00000241
000002DB006500000000027D000001FB 000002A7009700000000028B000001F2 0000025200D000000000028C0000020C 000001FC00F000000000029F000001F8 000001FB00E50000000002A5000001C8 0000022000DD0000000002A3000001CF 0000023700B400000000029D000001DA 000002850079000000000280000001C1 0000030A000E000000000245000001EA 0000032C000100000000023B00000224 000002A9005D00000000026D0000021D 00000256009B000000000272000001F3 00000245009C00000000026C000001CE 00000252009A000000000259000001D4 0000024F0087000000000255000001DD 00000238009B00000000029A000001B4 0000027A00B8000000000290000001A9 000002BA00BB0000000002A2000001C7 000002CD00CB0000000002B2000001F3 000002D000B10000000002A700000202 000002C900A30000000002B6000001F8 000002D3007B00000000025700000242 000002C600090000000002040000026B 000202600024000000000275000001EB 0000024F00940000000002A900000199 00000260010D0000000002E900000174 000002AA010C0000000002AB000001B5 000002C200AA0000000002AF000001DE 000002D3008B0000000002A500000208 000002DB006D0000000002650000024E
000002C2006F00000000027700000213 000002D40051000000000276000001F6 000002DD003F00000000024C00000205 00000263009D0000000002730000021A 000001DB00EF000000000299000001EF 000001C900F40000000002A7000001AB 000001DF00FD000000000291000001D0 000001E800E80000000002A4000001E9 00000256007C000000000286000001BF 000003050005000000000257000001CB 00000325000900000000025900000218 000002B8006200000000026500000232 00000252009500000000026B00000200 00000246008A00000000026B000001C9 0000025F0075000000000272000001BB 0000025B00A90000000002B1000001B4 0000027B00F30000000002BF000001C2 000002B000D00000000002AD000001E3 000002D100AD0000000002AD000001F5 000002D1009B0000000002B3000001FD 000002C400A10000000002AD00000200 000002E1004C0000000002250000025B 000002B3000000000000021D0000025C 0000024D003500000000028D000001D3 0000024700C70000000002CC00000186 0000027B01180000000002D10000018B 000002B500E90000000002B3000001C8 000002C0009A0000000002B6000001E5 000002D500870000000002A300000216 000002E700500000000002430000025F
0000020000B000000000026C000001D4 000001FD00B5000000000282000001C9 0000025D0056000000000242000001D2 000002A10019000000000230000001DD 00030254007B000000000266000001F7 000001E100E30000000002A7000001C4 000001F100D9000000000262000001B1 000001D400EC000000000286000001DF 0000019701160000000002C8000001C4 0000021900AE00000000029900000194 000002F40017000000000255000001BC 00000337000000000000025100000210 000002EB003B0000000002780000020B 000002B100730000000002A0000001D5 000002CB007A000000000287000001E2 000002D2009C0000000002A9000001F3 000002C200E30000000002BD000001E8 000002C500D20000000002AB000001F7 000002C800A80000000002AE000001FF 000002C800980000000002AD000001FB 000002BF00A00000000002970000020C 000002DA00300000000001FF0000026F 00100290000000000000023A00000235 000002430059000000000298000001B4 0000024400F20000000002DE0000017B 00000290011C0000000002BA0000019A 000002B500D00000000002B9000001CF 000002C500950000000002AD000001E9 000002DC008700000000029B0000021C 000002F2003C00000000022900000276
000001CD00B400000000026B000001C7 000001B000D8000000000282000001BC 000001C100CF000000000276000001C0 00000222005E00000000024C000001B7 0000026B002400000000022D000001E0 000B021100AA000000000280000001F5 000001FB00B9000000000253000001BB 00000223007D000000000249000001A6 000001C200FE0000000002A7000001CC 0000017201540000000002C3000001B7 000001EE00D100000000028B0000019B 000002B7002800000000025D000001B4 000003190017000000000284000001CB 00000317006D00000000029C000001EA 00000322008300000000027700000219 00000302009500000000029D0000020A 000002DD00B50000000002AA000001FE 000002D100B40000000002A5000001FB 000002C9009E0000000002A9000001FD 000002C200A00000000002AF000001FC 000002C7008700000000027900000221 000002E3000E0000000001FD00000271 0016027A000000000000025E0000021C 0000023A00830000000002A7000001AB 0000024601160000000002E400000178 0000029801110000000002B1000001A6 000002B700BE0000000002BB000001D2 000002CB00990000000002AC000001F7 000002DB007C00000000029600000225 000002FC002500000000021200000280
000002290081000000000249000001DA 00000210009400000000025C000001D0 000001DD00BB000000000274000001C5 000001DA00C1000000000275000001B1 0000023D004F00000000021C000001D5 00000235005A00000000024000000202 000C01D200C1000000000294000001AE 00000211005E00000000025600000183 0000022F005E000000000256000001C7 000E01BD0108000000000299000001CF 0000015801580000000002A0000001BC 000001930102000000000288000001A7 0000021B00AF00000000029E00000192 000002970098000000000294000001A9 000002DF008C000000000286000001D5 000002DD00910000000002A4000001EE 000002D500A50000000002A300000201 000002D200A50000000002A4000001FC 000002CC009A0000000002A8000001FD 000002C500A10000000002AC000001F9 000002E7006200000000027300000215 0000031500000000000002200000024A 000002B1000500000000025C00000237 00000253009B0000000002BA000001C8 00000250011E0000000002DF0000016E 0000029F01020000000002B1000001AB 000002BF00B10000000002B8000001DA 000002D500910000000002AE000001FF 000002DC007C0000000002910000022A 00000304000B0000000001FF00000280
000002370071000000000241000001E0 0000022A0073000000000241000001DE 00000207008A00000000024E000001D4 000001D700C1000000000272000001B0 0000020F0086000000000230000001C6 0000023F001E00000000020E000001F8 002801C500A60000000002B50000019E 00000174005400000000026400000169 00000159002B0000000002480000013E 00000209008200000000021E00000164 000001EA00DF000000000253000001A5 00000170012F00000000029F00000194 0000015701370000000002AE0000019B 0000019E010D0000000002C300000187 0000022900AF0000000002B90000015B 0000029800750000000002B000000182 000002D3007E0000000002A9000001CF 000002DE008D00000000029F000001EE 000002D6008A0000000002A9000001FA 000002C800960000000002B00000020A 000002DE006400000000028A00000203 0000031E000000000000024300000215 00000323000000000000022700000253 001C029100930000000002D2000001E5 0000026201230000000002E200000184 000002AB00EA0000000002B0000001BC 000002C500A90000000002B5000001E1 000002D6008C0000000002A800000203 000002E7007400000000028800000229 0000030B00000000000001F900000285
000002370071000000000239000001E1 0000022D0064000000000236000001E6 00000213007300000000023C000001D2 000001E700A4000000000269000001AA 000001FC00A8000000000241000001BB 0000024B002F0000000001FF000001D9 000001F600120000000002BE00000140 00000124000000000000025100000125 0000007A008000000000025000000040 000001CC006E0000000001E0000000A9 00000283004B00000000021C000001B0 0000022800AF00000000026F000001BE 0000021300E3000000000265000001B0 000001C501450000000002C1000001A4 000001B501450000000002D2000001A5 0000021B00C600000000028F0000017B 0000027200580000000002A200000152 000002A900500000000002AC0000018C 000002C80080000000000299000001E1 000002CE0068000000000296000001DF 0000028600360000000002D10000018C 000002B2003100000000027E000001B8 00000367000000000000020B0000023C 000502E100700000000002DF000001F5 0000029501130000000002D3000001BA 000002B800D10000000002AD000001D2 000002C300A30000000002B8000001EA 000002D0008A0000000002AB00000200 000002E900680000000002910000021E 0000032400000000000001F900000281
000002310063000000000230000001C1 0000023A005100000000022D000001D9 000002270065000000000234000001D5 00000216007D00000000026F0000018C 0000023200360000000002850000014B 0000022A00000000000002AC0000011C 0000016B000000000000032E0000009B 000000E400000000000001A8000000D3 0000009F008C0000000001F300000000 00000137000000000000020000000000 0000024B000000000000023600000086 00000291000000000000026F00000139 0000028E000600000000029F00000160 00000249003A0000000002E500000149 000001F800A60000000002FF00000161 000001A400A60000000003040000014B 00000156002A000000000309000000EA 0000017600000000000002CA000000BF 000001E800000000000002A9000000DA 000001F900000000000002EA000000D5 00000188000000000000030B0000009D 00000226007B00000000023400000104 0000034500260000000001E7000001F5 000002FE00620000000002AC00000203 000002B800EA0000000002BE000001CF 000002B800BD0000000002AB000001CE 000002C200980000000002B8000001E8 000002C5008D0000000002B2000001FB 000002DF006F00000000029700000215 00000332000000000000020000000271
00000205007C00000000023C000001B8 0000022C005400000000022E000001CB 00000240005B00000000023C000001B5 00000241008F00000000029800000176 0000021600000000000002CC000000F8 0000012E00000000000002C000000056 0000005500000000000001E60000004F 000000CC000000000000000000000040 0000006900D000000000013C00000000 0000002E006B00000000018500000000 0000010B000000000000014300000000 000001B6000000000000019B00000000 00000180000000000000023600000000 0000015D000000000000025F00000000 00000145000000000000028400000000 000000ED000000000000028C00000000 0000007400260000000002390000002A 0000003600430000000001EC00000000 00000042000800000000020000000000 00000038000000000000022200000000 00000068003E0000000001C700000000 0000014F009D00000000019300000000 00000252000000000000020B000000CE 000002E8005F00000000027B000001C2 000002C600CF0000000002B3000001E2 000002A300AB0000000002B8000001CB 000002BC00950000000002B1000001E6 000002C8008C0000000002AB000001FC 000002DD007A00000000029B00000216 00000327000800000000021C00000263
000001F90099000000000239000001CF 00000210006C000000000237000001BB 00000235007200000000026F0000017C 0000026700BD0000000002AC0000016A 00000217002700000000029200000181 000000EA0000002000000188000000E3 0000007E000000000000003300000041 008E00EB006000000000002400000000 0034002000CD00000000014F00000000 00000016012C0000000000CD000E0011 0000004B00790000000000750000002D 0000006300000000000000B400000000 0000003D00000000000000EC00000000 00000036003C0000000000F900000000 00000034002200000000011600000000 00000077001A0000000000AE00000000 000000A1005500000000006E00000000 000C005400B00000000000980000001B 0000000000A80000000000E200000006 0000000000990000000000DA00000000 0000000000FB0000000000C800000000 0000000000F100000000018900000000 000000A9000C0000000001ED00000000 00000243001A00000000020F0000009A 000002E4008A0000000002790000018A 000002A400A10000000002AA000001BC 000002B2009B00000000029F000001E7 000002CB00900000000002A7000001FF 000002D300830000000002A10000020F 0000031B00240000000002490000023C
00000211009100000000022D000001EE 000001DA009D000000000243000001D8 000001B200DB0000000002890000019B 000001E2011600000000029100000180 000001F1004B003500000233000001D3 000001930010013B000000FB0000016F 000D00BC008100EB0000009A00000093 00AB0058006000690000010000000045 002B004700C20054000000D80005001F 0057008900FA003A0000005D00000067 009A0098008D00000000006B000000AE 00CC006B001F0000000000D8000000A4 0085004800410000000000DE00000082 007E002D00820000000000E300000061 002D000800AF0000000000F800000005 00000076007900000000006C0000002A 008200CC001E00000000006E00000088 00C200B200420000000000A70000009D 00A3007500620000000000CB00000094 00AB0056008B0000000000D800000099 009B001F00D300000000010700000078 00290000010500000000017A00000026 0000000000E50000000001B100000000 000000C9002F0000000001CB00000000 00000222000400000000023600000078 0000028F007E00000000026900000158 000002BA00AB00000000026B000001D8 000002D1009200000000029C000001FA 000002C700890000000002A40000020E 000002F7005600000000027F0000021B
0000027200460000000002320000019D 0000025A006A00000000023F000001C9 000001EE00D0000000000287000001AE 0000019A0142000000000294000001A8 0049016400F700000000023900000234 0083018B014500D5000000F600000274 0013014E01B0019400000041000001DF 00DE007D00FC01A3000000DA00000112 005D002A00DF0127000000C800000047 004A003100B1005A000000B500000030 00740090004300000000009700000073 00B600A2000B0000000000D200000085 008600BD001C0000000000B50000008D 00C6009E00450000000000E60000007A 00A2003E00DD0000000000F80000008C 0052005800C30004000000890000009F 006F007D002200000000009D00000074 009C009700150000000000B900000081 0095009B003C0000000000C10000008A 008C009A00560000000000B900000097 00A90076007F0000000000DD00000098 008B003900B50000000000FF0000006E 001F000001270000000001510000002D 0000000000E00000000001B500000000 00000098000000000000020F00000000 000001C6002A00000000020D00000052 000002A900AD00000000021600000172 000002E3008400000000028B000001FA 000002CD008F00000000029800000217 000002C200860000000002A800000207
00000218007300000000024700000192 000002B0002A00000000022F0000017D 000002E3004300000000026F00000184 000002EA005B00000000026E00000180 001E02BC008200000000024F000001EF 010D029E01390000000001A7000002E8 011F026201DA00E10000013100000358 017E013001DA018C000001A00000031E 00DA008B01CB02150000012800000220 0011003200F201D7000000E4000000B1 002C0033004B00B5000000D500000036 0074008700150000000000C400000045 007000CA002B00000000009B00000068 009400B400410000000000B900000087 00B5009500BB00000000005E00000102 0127003600D3001300000090000000E2 0054000000760035000000D000000031 0041005B00450000000000A30000005D 00A2009200390000000000BA0000007C 00660097003E0000000000B000000067 009D009D004F0000000000CE00000082 0099007300860000000000ED00000079 006F004A00C80000000000DC00000080 00340000012400000000014700000047 00000000009B0000000001B500000000 0000008C005000000000019600000000 0000020D00950000000001B600000085 000002F00068000000000254000001BE 000002E9008B00000000027400000233 0000029F009A0000000002B900000202
000001870110000000000264000001CF 0000018800FD000000000249000001E1 000001C200C000000000024F000001C4 0000022A009B00000000024D00000193 000002C80033000B000002160000017B 000003550014001900000209000001A5 0082037B00680025000001F400000237 0114031100D5004C00000225000002DA 01A8022A01BD00D90000023A00000385 00F800EB01D901BB000001D2000002FF 0003000100F001FD000001390000012B 00300000006A00D5000000EF0000003A 0065007800500000000000A00000004C 0091009E006600000000007C0000009D 00E900D4005E00000000000000000142 01BC001A006C0013000000FB000000C0 004C000000CF004A0000013300000000 0000004900800000000000910000005F 00E0007100550000000000D800000098 0051006F00590007000000BD00000057 0065009F001A000C000000DA0000002D 0075009D006C0000000000D600000072 0097009700AB00000000008C000000D1 00CA005100C00000000000CD000000AA 006D000001080000000001390000005A 0000000000FC00000000017F00000000 000000E200A90000000001AB00000000 0000027E004000000000021C0000013C 0000031E006C00000000023300000236 0000029600990000000002C0000001F9
000001E600B000000000023E000001C4 0011018C00F800000000024B000001BE 000C011D013A00000000027A000001B6 000000C4018B0000000002A0000001C3 000000E80166000000000279000001D8 0000015C00CE000000000282000001AC 00000231005900000000024F00000179 00000309001300000000022D0000016C 0044034F004200000000020000000217 01A702AE01610038000001BE00000379 0147010501CD0182000001BF000002E2 0000000000FD01DD00000172000000DA 0039000000900099000000FE00000037 0080007F007A000000000063000000A8 00F3010000000000000000120000010A 017C0036000000180000016C0000004D 0018000000F6002A0000013E00050000 0000008A00AD00000000004F00000088 01040079006F0000000000A3000000E1 00B0004200AC0018000000B50000008E 003A002300870025000000D800000033 002E008A008B00000000005200000090 00E800C90075000000000056000000D5 00E60068007D0000000000D3000000A8 00B7002600C10000000000F00000009A 00600000012800000000016A00000043 0000001501200000000001CD00000000 0000018F00570000000001F0000000A5 00160319002C0000000001FC0000020B 000002A700900000000002B3000001EF
00000248005100000000020C000001CD 0000023D0059000000000210000001C9 0000020E0083000000000224000001C8 001201B500E1000000000243000001BF 00240144014500000000026B000001BC 000000CB017E0000000002AA000001BB 000000A4018F0000000002B4000001C2 000000F901290000000002AE0000019F 000001FC006400000000024200000162 000702F1000F00000000018800000230 020D023E00FD009700000200000002C5 005B007D017601A3000001F600000191 0000000000F90127000001670000007F 0064005D007F00000000007B000000AA 00DC00D40000000000000066000000F2 0100006C005A00190000011F0000008E 00360084013600860000009400000065 002D00BB00BB0059000000210000009F 01020099003C000000000072000000E6 013F0043009F000F000000F5000000A0 0065000000F30006000000E60000006B 006B006200C400000000004B000000CD 00FD007700430000000000B5000000C4 00B0004C00630000000000F0000000A7 009E004E00940004000000DA000000A1 00A6001200CB0000000001290000005C 00000000014C0000000001B300000000 000000E100EF0000000001B500000035 001702BF00000000000001C1000001CF 001B02B6008A000000000298000001EF
0000022F005D00000000021C000001D6 000002310051000000000210000001D5 000002420047000000000201000001CA 000002410056000000000207000001CA 0000021A007700000000021D000001C1 000001D200BA000000000238000001B8 000D015C012A000000000250000001D1 002200A801A70000000002A0000001CA 0000008E019F0000000002A500000199 0000018B00790000000001DE000001C8 00C801C50015000A00000265000001C3 0080012500CB01530000021E00000140 00000000017B011C0000014C000000AB 005D004E00C5002A0000008A000000E1 00DE00D0006600000000007100000110 013600EA017700000000008A000001B2 0136013F01C800F500000064000001E6 005900B100B00187000000A7000000F9 007C006F0000008B000000C50000009C 0128005A003A00010000013600000079 0063004D00D90000000000B900000082 00A6009000AB000000000074000000D2 00E6005700470000000000EA000000CA 009E004C00700000000000CC000000B4 00A3005000810016000000DF0000007C 009A003600F00000000000F30000009B 005D005C01E70000000000E0000000EC 0000012C020C0000000000F8000000DB 000002620001000000000195000001A9 0057028C005500000000029C000001DF
000002000077000000000221000001CF 000002030073000000000220000001CA 0000020C006600000000021E000001CC 00000218005C00000000020B000001D8 00000213006200000000020C000001DA 00000201006A0000000001F7000001DE 000001F100660000000001E2000001D6 002D018200C2000000000234000001AA 002000D9018100000000028F0000018E 000001060130000000000208000001CC 000000F900660000000002EA000000FA 0000009E001B00D6000002A100000079 0000007001D50059000000C8000000F6 00E800F901D4000000000015000001F0 0112015D00E700A800000075000001A0 00D8019101400061000000C1000001C9 023F019F017B004400000191000002E5 00DC00B30114017C000001B40000023A 000000040068017A00000128000000C7 00A20016002500790000013D00000031 003A009D00B500010000007600000074 00AC00B8006E00000000007A000000CF 00D5007F00300000000000CC000000BB 00B10071006C0007000000C90000009A 00B6007901030000000000BD000000E4 00CE010301ED000000000011000001EB 01730195024F005800000029000002A1 00A50171025E004E000001A100000225 0000017A004C00000000028A000001EB 0000020600110000000002D4000001BC
0000020A007600000000021F000001D0 000001FF007D000000000225000001CA 000001F8007C000000000218000001D8 000001F800740000000001FE000001EB 000001DF006E0000000001FF000001E5 000001D1006B0000000001F6000001CD 000001DB004E0000000001EA000001BE 000001DE0053000000000200000001A6 000001BF00AB00000000023300000180 000001C400E100000000020D000001AF 0000011000F300000000031900000119 0000008000EC00A00000022E00000105 00000171027B007F00000000000001C7 01B702200205003400000017000002B3 01C10180012E00FD000001C000000292 0000018F010E00B80000019F000001E5 013101B400380000000002340000022F 01790142008A00AD0000024E00000218 000000200100012E000001A90000010C 0023000000AC008B0000016E00000053 002F007900A400030000007700000072 00A600B0003C00000000009C0000009F 00CE00AB004F0000000000BC000000CA 00D900E7013D00000000005B00000179 0112018701EC00090000000000000269 0173022B01C800A700000028000002C1 01C101BA012200A0000001D0000002A8 00EA00DE015800000000032900000255 000000AC00FC00000000034400000206 0000016900760000000002CC00000195
000002080076000000000214000001D5 000001FB007A000000000212000001D0 000001EA007B000000000201000001DF 000001D9006B0000000001F3000001E6 000001CC00600000000001FD000001C4 000001D1006B0000000002100000019E 000001ED005E000000000209000001A1 0000021C00630000000001FF000001A9 0000021D007100000000020C000001BF 0000021700930000000001FE000001D9 00340156011F0000000002A7000001AC 0026011901F000BB0000016000000230 00000222029700FB000000000000026A 015301D400E1004F000001D30000028B 016D00F4008400640000032A0000024A 0000013B007B007E000002A900000139 000000F2000000000000035100000034 005200CA00000000000002E70000008F 000000B0011100000000011F0000011D 003D001401580029000000E4000000A5 0046003000CA0036000000980000006B 0096007A00CB000000000073000000FB 010B012201880000000000000000021C 015F01F801D1006400000000000002C2 01A40229014A00EC000000C7000002A3 013301A900A70064000002570000027B 007F0122003D0000000003010000023A 0000014200980000000002BD000001D0 00000143012F0000000002A9000001B2 00000144013600000000029A000001A4
000001F1007B000000000219000001D7 000001E4007C00000000020D000001D9 000001E100660000000001F8000001DA 000001E500550000000001FC000001B6 000001F1005F00000000021900000199 00000202006E0000000002200000019C 00000226007B00000000020F000001B0 00000240006D000000000208000001BC 0000023C0062000000000207000001CB 00000233006E0000000001F2000001DC 004301A400D8000000000256000001C8 0083019001860030000001C700000207 002401DA01B80012000001DB00000212 0024016B00340000000002C100000220 00780116007600000000030F000001D7 000000B600E400000000026F0000013C 00000000009C0000000001FF00000030 000000B4007B00000000008A0000005E 005D01B300BB0057000000000000009E 00CB008B0132005B000000BE0000006C 00AC001701B000000000006C00000183 012700F6020E00000000000000000293 01C101D201AB008A00000000000002C9 01BF01BD00E900BD000001AD00000274 00BD013500640032000002FD00000214 0000016F001E0000000002B800000229 000001C800510000000002590000020C 000001E4008C000000000237000001AF 000001F700AB00000000024B00000178 000001C8011200000000027B000001A0
0000020A007000000000020C000001E1 000001FC00650000000001FE000001D9 000001F90057000000000202000001C1 000002040066000000000217000001A3 00000216007000000000021F000001A3 00000235007700030000021C0000019D 0000024F0079000000000212000001AC 0000023E007300000000020F000001DF 0000022D00660000000001FF000001D8 0000024000470000000001F2000001BE 0000021E006600000000021F000001AD 000301EA00E300000000022C000001BD 000001E400E700000000023D000001A8 00000233002E00000000023500000193 00000240005900000000024E000001C4 00B301C7014D0021000001B400000280 003E016102A400C1000000B000000286 006701A101EB0188000000660000021E 00E7012B00B901A00000012E000001B2 0089004C019200BC000000B6000001FD 01590157023A006E00000000000002C6 01FB01FF018200C100000060000002B0 018A0144009C00680000028000000258 007200EC003C00000000033700000206 00000172006E0000000002C2000001AE 0000023B004C0000000001DD00000211 002F02240066000000000222000001F5 000001E300AC00000000023C000001A6 000001F900A800000000025300000175 0000024900850000000002330000017A
0000021900630000000001FE000001E4 0000020200600000000001F8000001DB 000001F20066000000000216000001A8 00000213007600000000023200000179 0000024E007800000000022900000191 00000245009E000000000222000001E2 00000226008D0000000002020000020B 0000021E005F0000000001F7000001D9 00000208006E000000000211000001B8 000002040075000000000208000001D4 0000020D00690000000001FF000001DE 000001FC008F000000000220000001C4 000001D900CF00000000024F0000019B 0000020500A10000000002440000018A 0000027D003500000000020B0000018A 006102EB004F0044000001BE0000020A 010802E60168006B000001D20000029F 012301BB019E006E000002A50000030A 00F300D3013600BB000001FA0000036F 00CC018D01F5015A000000480000030F 018901E9013F01340000013700000270 010C015A00300047000002EA0000024E 0007013100150000000002F200000239 00000197007C000000000282000001B5 000001E600D000000000023B000001A6 00000241005A0000000001AD0000021B 001D0201005A00000000023F000001C0 000001E400B2000000000224000001CB 0000019600FB000000000276000001C3 000001DB00BF00000000022400000199
000002200052000000000204000001CC 00000232004300000000021C0000019F 0000023E007200000000024B00000185 0000024400AA00000000024E000001AF 0000024300A20000000002100000020C 00000233006D0000000001EF00000210 000002050076000000000201000001DF 000001CC0084000000000218000001CD 000001C2008B000000000214000001CD 000001C900890000000001F6000001DD 000001B600860000000001FB000001D8 0000018F009E00000000021E000001B9 0000015B00E700000000025D00000199 0000014A010C00000000025A000001A6 0000017E00DF000000000241000001AD 000001DE0079000000000227000001A6 00000235006A000000000208000001C9 004302040092000000000212000001F6 00CF022500C300140000018700000269 00DF021F01340033000001E500000283 0059012F008600000000031800000242 0000014F00000000000002A200000205 00000208005D0000000001FF000001CA 000001DC00C100000000024F000001AE 000001C400CB000000000205000001F0 000001EB006F0000000001DF000001E8 000001D0007300000000025000000188 0000020A008E0000000001EE000001E9 001A019600E700000000025A000001D9 000001480134000000000250000001C5
0000022C005E000000000233000001A0 0000026C006400000000024300000182 000002840097000000000229000001F5 0000024A00A30000000001FD0000023F 00000213007C0000000001DA000001FF 000001E3006D0000000001F8000001CD 000001C4006F000000000215000001CA 000001C4007E000000000209000001CF 000001C10090000000000200000001C8 000001BA007B0000000001F7000001C2 000001AF0074000000000202000001BD 000001940092000000000214000001B4 0000017300C100000000023000000193 0000015200FD0000000002410000018B 0000012E011A000000000258000001A2 0000013300F4000000000243000001B7 00000174009A000000000228000001BB 000001C10065000000000214000001BB 000001F2005C000000000206000001BB 000001FD0057000000000216000001C7 000001EB006D000000000227000001CB 000001F5008B000000000200000001D1 000001F5008700000000020F000001C5 000001E80095000000000226000001C2 000001F800950000000001D6000001FB 000001B60096000000000234000001BC 000001CE009900000000023A00000186 0000024000610000000001D2000001D9 000002150067000000000223000001CA 000001B500DF000000000248000001B9
000001FC00B4000000000264000001A7 0000020E00D9000000000237000001DB 0000023500830000000001D60000021F 001A020300640000000001EC000001F2 000001C10076000000000210000001D2 000001B8006E000000000214000001CB 000001CF0072000000000206000001C3 000001DD00770000000001FC000001BA 000001DD00700000000001FE000001BC 000001E300680000000001FF000001B9 000001F800540000000001F7000001BB 000001FC00620000000001F9000001B6 000001ED0084000000000215000001A4 000001DB009F000000000217000001A6 000001C800B8000000000216000001B0 0000019900CE00000000021D000001CA 0000018100C100000000020E000001D8 0000018E0097000000000225000001AC 000001D0007800000000022A00000173 0000022F005A0000000001FD000001A0 0000025900560000000001F5000001DD 000002330071000000000206000001EA 0000020D008900000000021B000001D1 0000021B0078000000000208000001C2 0000023700590000000001DC000001EA 000001D8009600000000023A000001E1 000001C400CA00000000022D000001B0 0000021F006F0000000001EC000001AC 00000247003B00000000020D000001C3 00000241006D000000000211000001C1
000001F300C7000000000255000001B4 000001ED00CC00000000020F000001EA 000001E300730000000001F2000001F4 000001CA0047000000000223000001C5 000001E6005C000000000215000001C0 000001F90072000000000202000001CF 000001EF006E000000000209000001C0 000001F50069000000000208000001B3 0000020A0061000000000204000001B3 000002120064000000000201000001BF 0000021700600000000001F2000001CD 00000217005D0004000001FB000001BE 0000020F007500020000020B000001B2 0000020700840000000001F7000001CA 000001FA00770000000001ED000001D5 000001DF007F0000000001F6000001CC 000001BC008D0000000001F9000001CA 0000018E00AF00000000023D00000194 000001BD00BE00000000025A0000014A 00000257007000000000021A00000176 0000029D00400000000001FB00000201 0000025F005100000000020000000226 000002210078000000000210000001DB 0000020E008300000000021C000001C6 00000237004B0000000001D0000001F3 0003020B00660000000001FB000001FA 0000019700DE000000000241000001B5 000001B200BA00000000021500000190 00000203006E000000000210000001B1 0000022A007300000000020A000001D5
000002570094000000000222000001E4 00000255006E0000000001F9000001FD 000002330051000000000202000001F7 000002140068000000000213000001E1 0000021B00710000000001F9000001D4 0000021F00640000000001F9000001CD 0000020E006E00000000020D000001C2 000002140078000000000206000001BE 0000021F0076000000000201000001BE 00000225006E0000000001F9000001D7 00000215006D0000000001F2000001E0 00000203007A000000000208000001C0 000001F6008B000000000200000001CC 000001E9008C0000000001DF000001F0 000001C9007E0000000001EE000001D4 000001C9006F0000000001EE000001B1 000001DB006C0000000001F7000001B2 000001B500BA000000000237000001AB 0000017D0124000000000268000001AE 000001AE00F5000000000219000001DB 0000022500470000000001C2000001F4 0000022600450000000001F3000001EC 000001DE008C00000000020E000001E4 000001CD0098000000000218000001B1 0000021A00650000000001D7000001C2 00000224003B0000000001D3000001FC 002D01B400B0000000000240000001CA 0000019600EB0000000002310000018B 000001E000AC00000000020E000001A0 0000021A007B000000000222000001A7
000002BD004200000000021A000001E3 000002AF0031000000000210000001F3 0000029100280000000002080000021B 00000254004E000000000218000001F1 0000022F0064000000000211000001E1 0000021C005B000000000210000001CE 00000213006700000000021B000001B6 0000021D007400000000021B000001B4 0000021C0071000000000215000001C8 00000220005F000000000200000001DC 0000020D005B00000000020B000001C9 000001EF0077000000000217000001C3 000001EB00740000000001F7000001E1 000001E500620000000001E4000001EA 000001AD006F000000000213000001B9 000001BB007800000000021500000199 000001F0006A000000000209000001A1 000001F8007E000000000223000001A2 000001AE00E9000000000230000001D4 00000148010C00000000021F000001F4 0000013A00B600000000020E000001CA 00000172006100000000020D000001B1 0000019C007B00000000021A000001AB 0000019800AB00000000024200000187 000001E8007D00000000021300000190 00000258001D0000000001C0000001F1 002D02070063000000000225000001EA 000001AC00DD00000000023D000001AA 000001BF00BD000000000216000001AC 000001E3009500000000025100000184